conv_3_param_0 40.912243 44.179783 45.002110 27.591904 49.591099 33.164860 66.805389 25.157522 28.871164 40.739494 26.617657 68.103188 49.700062 49.940861 37.613949 59.261803 
conv_4_param_0 358.367676 469.772583 290.687286 247.266510 279.894104 921.006409 575.843384 285.764435 702.761230 604.109863 464.452942 420.828094 655.120117 204.571671 518.762451 423.313080 409.001770 406.906891 109.720802 340.506134 157.165863 424.288300 424.232819 774.178772 291.545837 726.241333 469.123138 316.925507 546.111572 600.638062 139.538406 555.464661 
conv_5_param_0 289.717590 195.611267 103.363792 280.462494 283.956787 175.933060 147.989944 319.557373 163.070633 200.186539 191.684998 310.415161 311.135803 160.096222 164.014008 237.853104 354.124054 256.576691 167.490677 246.435974 256.111877 129.838074 278.230408 191.329819 213.973633 166.926651 437.704834 310.286346 358.502991 266.945374 229.378464 284.973541 
conv_6_param_0 204.708572 106.176125 65.812859 136.934097 84.989426 64.721695 33.482754 109.207504 113.502823 65.637680 102.573189 56.609467 63.627453 112.695564 89.004936 136.214905 
conv_7_param_0 62.346046 116.373955 87.157433 89.845093 96.422913 108.259895 73.058777 57.602459 84.452583 34.504440 84.078369 56.139267 67.261337 82.843208 84.092995 103.583603 
conv_8_param_0 774.932800 517.153442 599.053894 340.984436 734.661621 472.175842 610.395081 442.240967 918.950012 586.128784 500.262238 537.451477 545.555664 629.761169 914.798706 611.760376 322.118561 383.657745 1156.392700 550.184082 651.675781 749.139709 749.709900 448.221375 431.550903 258.428406 498.976074 547.300293 655.283264 693.758911 599.930298 776.266968 
convrelu_0_param_0 64.096924 58.948933 82.990852 41.576950 64.783676 86.613914 109.367783 71.859650 77.142166 76.908539 111.578209 64.949364 89.926346 77.613693 47.771255 50.709267 102.565430 85.968857 83.153900 62.890541 38.830582 101.256775 84.650665 65.249741 78.769234 75.988029 82.291641 53.083611 97.975311 88.546722 55.691227 47.735340 
convrelu_1_param_0 111.284836 80.364555 115.223228 107.606781 52.124794 81.972885 98.968040 57.611614 113.169342 73.952240 109.651123 106.523491 113.068565 83.591835 74.081680 95.903320 125.905800 54.589855 74.956314 62.611439 100.217834 124.730843 99.199997 100.138802 114.806511 60.987511 72.807343 129.435272 82.666664 96.854309 86.791527 72.974716 
conv_11_param_0 299.477264 453.919708 397.700317 348.888000 347.954529 343.361053 304.919098 354.354218 279.372711 413.836121 319.921265 302.789276 347.954529 321.503082 338.666656 405.449738 305.815399 306.536255 313.180023 396.790222 379.979553 360.743408 326.343781 349.356628 307.079102 317.190247 448.828308 441.964325 381.652252 318.160248 326.139191 448.055115 
conv_12_param_0 163.628860 157.051331 176.970032 152.432175 152.340729 174.297867 161.034882 136.901352 108.433815 112.467674 154.943253 185.501831 132.266663 138.771591 155.703247 178.839432 165.981705 116.491745 184.692368 162.998718 144.784500 136.533340 188.952377 139.841415 166.963837 208.670502 115.014496 117.461609 161.239365 125.284660 143.882156 154.097092 
conv_13_param_0 951.860962 731.120178 825.046814 770.654785 758.297363 757.193604 597.578430 665.632751 666.912842 696.841248 651.869690 774.095215 800.295410 703.913391 759.959106 602.771729 896.110229 856.283142 702.013489 582.848206 698.244324 649.833862 554.280212 684.913757 753.901428 765.551147 781.655884 570.385986 828.331238 730.606750 794.792969 609.480957 
convsigmoid_7_param_0 52.426094 
convsigmoid_8_param_0 287.716827 
convrelu_2_param_0 182.175034 198.866089 179.852692 160.020157 120.470589 200.277603 171.589188 161.137054 203.161606 189.799698 211.626663 199.334381 164.903900 221.212540 191.085022 165.225769 189.657959 221.212540 204.965302 203.161606 213.046982 172.287659 145.614685 199.647797 218.171814 182.305817 159.617844 162.581299 192.679825 138.017395 126.030769 141.477432 195.950623 200.911392 176.233170 194.301453 209.704376 207.816696 171.126678 165.981705 173.346069 180.107803 202.030228 181.006409 215.578949 140.382538 189.233978 187.834320 194.897934 149.471451 159.117798 185.773224 187.142227 142.509537 139.995590 187.004425 201.229797 186.455215 209.877686 175.260178 189.233978 191.951630 157.440796 177.962158 
conv_17_param_0 100.217834 181.783829 128.975113 129.369339 142.110794 162.789749 122.919655 160.222076 168.851059 138.999451 133.098526 155.607849 164.903900 159.417450 140.849701 108.526497 124.242661 150.892456 154.190643 174.777695 128.193848 142.349777 152.799042 125.781082 129.965195 114.806511 162.269653 155.990173 151.613129 112.767319 127.103104 158.819260 
conv_18_param_0 218.201340 183.037292 311.865723 390.827942 354.837646 236.666061 200.382126 198.243896 331.755096 379.702179 355.808472 294.392761 165.877548 206.753571 317.383759 307.442078 359.248627 266.628387 311.865723 288.354767 284.413330 169.333328 384.757385 285.192993 85.953735 342.006561 239.058823 303.318939 197.491272 284.257935 191.106537 293.893799 
convrelu_3_param_0 98.046761 108.587837 160.885605 140.564575 88.975952 99.136818 90.620224 97.235580 111.143547 157.637726 126.996696 201.872345 120.479378 151.691620 169.041931 146.232040 100.258972 105.085197 95.398026 177.264297 131.284225 118.652229 74.388084 135.939423 132.829376 117.036079 152.654053 120.026711 110.329552 91.300819 136.061981 111.055580 
convrelu_4_param_0 92.468781 230.038376 105.560371 45.334278 101.277382 217.324783 121.601883 170.718582 152.967316 126.424744 102.297707 92.702171 68.499527 60.235100 97.334007 139.017166 81.656822 49.956165 143.637222 69.490143 77.873604 96.920303 115.984489 83.879181 83.453796 100.904251 103.785690 79.537079 135.491302 175.263962 100.520866 57.653076 
fcrelu_0_param_0 166.195526 151.747955 
fcsigmoid_1_param_0 116.949638 1801.530762 1491.589966 169.003250 324.916931 284.568939 163.788406 183.166199 189.851089 657.638428 146.615555 145.305023 843.782654 334.098907 224.607941 279.372711 175.385025 179.376556 1161.791138 84.064644 1422.261108 564.199585 151.482819 398.614563 98.895821 211.977173 660.980957 143.382584 98.971077 849.986938 368.407928 168.893509 
conv_21_param_0 289.156189 419.171631 388.492920 266.491791 158.113068 331.121582 245.373581 254.871140 369.980072 286.923340 337.567810 368.669037 242.626862 442.716583 249.372955 253.258026 218.936020 214.423737 358.012390 292.406982 386.759857 360.493408 398.309357 381.932465 310.933655 272.066956 266.082855 355.808472 322.299866 270.370056 331.755096 438.240936 
convrelu_5_param_0 98.360069 98.651291 122.661919 112.764908 54.593430 68.034485 94.133423 71.240623 126.943115 129.460876 100.477882 66.666153 95.384995 127.904633 79.042160 102.822388 101.204315 84.538193 71.523323 88.806633 74.340286 127.765472 93.733116 130.126205 74.213219 86.599991 97.784348 67.200623 71.361145 92.994453 98.924377 65.087883 
convrelu_6_param_0 118.506378 89.966797 167.030853 139.689377 78.309998 66.111763 138.158447 119.587791 141.554138 116.746132 105.683426 132.995056 89.409851 92.810616 143.238358 137.698410 86.660538 135.355392 85.255905 130.527206 59.509548 85.566833 93.054710 102.270851 169.549667 110.432495 92.826668 121.210922 220.371796 75.226326 126.871109 159.321732 
conv_24_param_0 1150.244629 1577.545410 1179.280518 921.614624 1327.139771 928.129517 1248.002930 1244.541016 1601.473999 1478.947266 1590.223633 1054.676147 1254.612793 1410.856079 1382.017334 1456.514038 1097.870483 1221.785645 1332.296753 1060.797363 1369.526123 1207.034180 883.473511 828.805359 1768.805298 1490.250977 936.511169 1367.216797 983.525940 1272.604492 1104.484497 1074.670288 1258.262329 1453.988892 1535.898682 1565.084839 899.835938 1480.924316 1078.989624 1763.853394 1368.080200 1085.169312 1380.380615 1359.896362 889.438599 1254.027466 1573.966919 1391.545654 1714.864136 1104.248779 1302.601074 1374.136841 1416.128296 1145.502441 945.725220 967.724915 1053.860962 780.451721 977.372131 1042.922974 1063.185669 1372.830444 1800.356934 1378.854126 
conv_25_param_0 219.696991 232.755325 260.837158 268.265015 234.191971 262.098022 377.389343 323.702637 317.184326 216.696930 224.941910 216.306992 201.571625 206.823837 244.731033 228.382355 261.724396 199.648346 251.298965 253.975082 173.558228 267.759216 200.530548 341.698212 262.800507 263.576965 175.126816 348.356262 273.888275 237.909622 219.044510 200.959656 440.056274 330.151367 374.041656 376.629517 354.178131 364.984100 419.497650 310.167114 544.865051 454.728851 435.494537 497.550598 264.830963 346.960266 413.786560 294.054260 400.881500 430.665680 336.966675 495.547119 440.159271 300.575409 356.749603 427.872406 407.632141 501.278046 388.960022 737.659668 321.403229 446.386627 438.095428 348.492035 
conv_26_param_0 89.713661 61.852901 79.843307 131.754303 98.195335 109.781792 81.738876 123.249802 89.415131 109.016991 94.760910 134.302429 74.076088 85.188858 133.977936 77.933609 131.975311 91.457680 96.896126 108.777832 83.912865 104.350555 76.337135 73.556595 117.414513 72.857910 109.648453 92.444275 93.574234 98.512848 84.493294 85.120850 
conv_27_param_0 83.235649 93.843903 113.008179 102.195610 87.609276 130.485535 107.886444 107.454811 94.341934 106.729683 78.155273 96.268448 119.635513 103.564110 113.629440 94.245331 140.386459 75.127007 95.618263 102.537483 100.436638 116.279587 104.622055 90.056824 84.869164 123.858772 93.888229 124.915977 102.358185 102.610870 125.801689 76.283203 
conv_28_param_0 421.658295 297.939026 455.588287 337.896240 349.838409 446.717529 408.215363 352.810150 372.244110 314.302094 348.872162 264.230377 439.635956 439.704376 441.541534 464.834473 328.860291 385.013123 467.573395 351.730316 337.488098 429.166565 329.292297 345.961182 295.035248 296.035736 332.324890 284.511444 400.424286 388.705200 417.786926 407.070587 319.424988 243.610535 251.292236 420.980286 419.358429 399.818329 357.924530 269.069885 288.424530 380.142914 347.165710 372.295227 467.652557 382.246307 537.381592 535.184021 308.234314 434.480713 371.975037 422.934265 393.144775 299.237732 250.826141 332.151855 340.469208 455.463715 428.619171 393.042664 421.284302 249.209396 355.737946 304.707214 
conv_29_param_0 787.475342 1296.517456 1044.282715 544.126465 1282.937012 914.315308 626.442688 1077.314453 883.817749 983.093933 1107.048462 1249.317627 1152.571777 1338.236572 935.933838 1244.061157 1079.646240 997.423889 1070.720337 1074.365479 952.407898 703.775696 922.370850 1012.453796 1167.983765 963.722412 1303.604126 819.998047 630.113098 1367.673584 1135.447388 768.398071 1413.305176 766.429993 947.101135 695.816345 985.808777 871.127075 1031.740845 576.566895 935.128906 953.064575 1028.390137 873.219299 1206.827637 1302.289429 1192.985718 865.522217 997.515198 720.026672 912.736694 1172.718262 1169.283325 760.340942 1431.976562 1028.219971 974.610718 867.450378 1362.699829 1413.429810 711.633972 759.492981 829.592773 1326.243774 881.968018 1193.151367 1109.634399 890.614807 1201.449219 1155.954590 1100.334351 884.121399 949.296387 1013.552429 1100.076538 1082.978516 911.043335 929.226440 954.204590 1090.951660 1126.432373 1147.723022 1364.634277 1063.995972 1131.469604 753.348328 1294.282471 1160.692993 957.016357 753.869019 1288.416382 1181.619995 1050.778564 1292.710205 1396.494019 1054.928833 1149.977051 996.438049 1028.340210 1118.660645 933.905151 1115.907471 1454.804688 1127.483521 965.730286 788.351807 1040.273315 939.558838 873.330566 809.290039 1051.938965 885.657593 878.414368 936.662903 994.796082 689.590271 1273.470581 857.668213 914.930420 800.511780 1051.852661 700.240173 756.364685 1134.550537 1312.477661 1354.268799 1055.678101 1090.005615 
conv_30_param_0 401.575043 482.855560 314.412872 302.773315 409.708374 393.527863 297.260040 387.314941 335.192566 445.621918 395.347534 351.273926 249.113617 332.116364 394.426666 349.334900 414.797394 434.310455 318.681152 253.647980 388.475891 436.088806 475.840546 275.493164 343.928436 251.570694 264.720581 382.654327 506.465790 444.974945 278.607635 443.746246 332.857452 331.719116 375.922516 381.892639 280.773193 453.481079 391.021179 353.594421 432.744720 282.275970 384.323944 393.161743 277.090240 350.313507 321.992920 459.536530 354.274872 349.805481 349.988800 299.415710 380.904633 253.746964 376.967529 458.379669 266.972015 380.276276 344.883606 272.241150 315.517822 445.452209 508.488892 325.297089 699.349854 705.917908 449.073486 584.090881 434.926727 781.552368 709.723083 532.321655 481.840027 466.559875 816.538269 737.581604 581.667847 463.328705 428.603821 602.392029 624.170349 736.455566 599.798035 426.968781 548.291138 559.959412 392.192078 667.105225 505.991089 512.158020 477.807037 604.484680 609.882385 557.152649 494.102112 483.727783 381.644897 583.155396 743.903198 631.756714 540.421814 847.028564 585.421753 499.425201 323.958069 670.835938 480.497742 604.606506 675.884033 325.557373 524.339111 579.201904 613.296326 609.228271 439.618408 422.301971 439.253815 515.712463 434.155640 527.473633 460.880615 332.984253 410.276184 529.174438 440.454559 350.432068 497.450287 575.252380 
conv_31_param_0 109.928986 138.201385 157.337219 114.931816 113.447151 124.575752 136.368866 126.467514 93.732536 120.689156 141.728317 162.361389 181.668961 135.146057 112.928673 185.795227 178.969971 107.593201 121.417915 149.450287 126.394043 130.770447 129.348465 110.052338 130.289551 146.720444 118.745903 116.438438 112.384666 107.915382 95.818878 168.724548 148.655655 81.182976 175.894760 129.157425 130.175812 115.850502 122.964424 148.769592 106.354408 152.434814 125.892647 137.716187 147.284424 130.684570 178.106796 140.114349 211.088593 83.377655 118.143326 101.426788 139.233490 100.463737 158.591705 113.571129 146.851761 140.144653 125.287987 159.147812 85.312416 115.033722 114.038643 112.842163 
conv_32_param_0 111.678825 108.934395 159.583817 105.620697 137.489410 160.725937 131.866028 145.138535 101.449432 144.077606 172.033081 167.841888 117.620399 141.347794 160.804993 119.300514 147.835526 157.265228 115.387985 172.527069 161.229034 130.339111 203.960327 121.268532 130.920364 97.146370 105.374840 108.934875 152.882339 147.019073 138.768036 141.806534 125.404549 121.699455 154.587662 199.789932 102.509483 147.129395 182.565781 136.419891 105.843925 166.389191 108.185287 166.453979 131.004166 127.976944 172.830505 130.605225 141.204330 164.698944 152.934799 126.356522 151.347473 129.754578 124.300438 165.468643 153.402374 142.395630 174.712891 105.396439 103.314301 182.848984 107.018402 174.638611 
conv_33_param_0 513.941833 359.266113 601.076843 373.575714 323.830658 372.646912 427.845123 480.480225 592.863037 476.876526 544.917175 458.259888 378.743439 561.155334 522.270020 431.453003 548.129639 571.423706 434.674561 776.754089 516.982361 440.213745 316.829590 497.718262 374.703033 382.364288 455.789673 477.052643 373.777496 613.325317 524.389587 709.886230 477.031281 444.669556 568.920715 525.992493 504.086945 684.490173 391.089752 287.336365 367.975403 513.979675 677.353333 628.510986 494.978149 462.210175 668.005737 430.768372 412.679962 504.625000 534.731384 418.913940 652.557312 519.730957 566.783997 473.948364 487.910522 549.608521 504.964783 547.980347 648.920959 517.912048 566.178894 413.751862 430.095581 508.401001 505.290802 594.569397 654.979004 486.451996 654.706421 499.688538 682.366577 565.056152 664.371338 582.248047 653.208313 698.432373 482.295654 477.045685 637.945679 473.233185 698.248901 431.056915 471.644104 506.569061 390.868164 667.451599 444.147095 489.316620 463.118561 531.508057 412.399109 518.407471 510.811646 751.805786 513.682617 403.214142 420.746185 327.839386 461.907471 493.580170 505.897858 497.243347 523.559082 465.720032 618.613892 474.964020 495.069458 573.979126 653.652283 332.577423 588.420227 357.805786 425.282440 573.983948 419.818359 547.809082 449.121155 483.736176 553.825256 546.311707 373.668549 528.914368 762.626099 497.388794 477.714050 461.481506 
conv_34_param_0 1778.750610 1529.594116 1477.054688 1476.968872 1822.139771 1662.845703 2153.478271 1118.795654 1373.190186 1798.150391 1544.016846 1610.175049 1698.874146 1734.528809 1653.767700 1408.406128 1795.782593 2098.897949 1801.633179 1926.133423 1614.239746 1711.570068 1616.682739 1323.243042 1654.256348 1445.579834 1307.451416 1649.342041 1765.032715 1526.537720 1256.783081 1716.012817 1566.084473 1764.813232 1254.624390 1375.930664 1780.460083 1365.383911 1547.836426 1637.208862 1307.669189 1443.040771 1617.911621 1506.831543 1695.823730 1452.919312 1211.719604 1765.244019 1526.294556 1448.825562 1362.027466 1929.625488 1660.071411 1638.919800 1821.966919 1474.111450 1494.028931 1590.232422 1246.095703 1591.548218 1280.042358 1571.840820 1394.317505 1709.637695 1608.672974 1587.793701 1307.810303 1014.331604 1567.271729 1537.563599 1644.069580 1417.268188 1701.334473 1096.052490 1699.412720 1617.928467 1264.621094 1464.240845 2066.868896 1649.997314 1526.626831 1581.283569 1092.988159 1925.235596 1744.807373 1346.711182 2135.392578 1480.223877 1189.341553 1462.509033 1664.299561 1611.872803 1350.143921 1518.849731 1752.500000 1536.665405 1448.405762 1818.364746 1632.583740 1271.264282 1492.642334 1466.492554 1082.460693 1915.517212 1589.586670 1451.627441 1365.026978 1309.212036 1615.231323 1754.077515 2141.891602 1418.007935 1269.992065 1662.936401 1444.054565 2030.029419 1289.931152 1009.886719 1723.021973 1146.259277 1432.833984 1331.942871 1859.254761 1736.211182 2283.552490 2062.909912 1848.916382 1539.986450 1429.683960 1689.517090 1336.507446 1579.831787 1511.060791 1334.486938 1452.196045 1308.719971 1760.680542 1281.181030 1393.549072 1764.716919 1952.516846 1550.978516 1236.606934 1549.671997 1686.378906 2165.750000 1390.967041 1619.058960 1246.493164 1408.745117 1525.931274 1390.131348 2385.168701 1296.530273 1243.229858 1695.043457 1363.589966 1451.039062 1377.304443 1387.270996 1737.641479 1243.827637 1493.277832 1411.342285 896.485046 1048.249512 1718.583252 1823.896729 1436.525879 1856.653076 1416.518311 1180.452148 1352.540771 1753.693237 1577.163940 1542.421631 1650.696533 1601.721069 1606.785156 1459.870483 1905.583008 1738.034180 1004.248840 1411.029297 1391.436646 1125.728271 1668.321899 1173.996826 1473.933228 1266.783447 1925.473389 1124.135132 1390.757568 1448.253540 2210.512207 1050.651733 1936.375000 1803.243530 1512.813843 1515.706299 1418.273560 1628.065796 1752.818359 1110.065674 1581.923706 1576.862427 1562.935669 1609.637695 1477.736816 1809.908569 1478.592285 1408.875610 2244.035400 1481.344727 1367.700439 1532.162720 1519.908813 1041.866699 2004.123047 2273.603027 1359.434082 1688.276978 1772.650879 1683.003906 1498.603638 1364.420166 1491.255615 1652.414429 1747.885742 1665.475220 1601.752686 2376.004395 1290.062866 1373.067505 1433.410522 2021.632812 1838.732666 1982.981445 1302.398926 1495.885132 1151.949951 1176.505005 1291.030762 1411.522339 2194.774902 1192.799072 1443.995850 1117.480347 2285.768555 1926.861572 1740.317383 1591.583130 1811.750488 1627.433228 1661.577515 1805.847778 
conv_35_param_0 677.865112 647.467346 604.803406 483.624725 763.484558 608.253296 563.419067 431.845398 651.493774 623.025208 599.031494 600.505676 620.447449 616.463867 546.036682 638.316833 650.024597 547.549622 536.771240 585.625488 515.113037 594.294800 499.381165 479.016083 622.776978 560.340576 699.791443 567.993164 625.161865 585.430786 564.483887 438.513519 644.592163 651.770142 491.977814 658.195557 627.763245 693.735291 570.805908 865.267578 548.255432 607.980225 572.626709 688.983887 545.993164 590.171021 606.867249 636.030090 578.227234 597.206726 688.508972 626.320251 775.016785 461.731201 532.669373 576.630920 493.703918 580.225464 660.450928 710.350525 601.801880 572.822144 706.610596 465.979034 596.177490 442.987579 725.843506 583.656921 672.014465 617.275330 533.928650 591.130249 654.306946 636.596558 531.995911 561.446289 549.165344 782.078491 689.424988 686.302734 631.881653 737.684692 780.335571 611.062256 624.008057 601.498718 483.254028 756.388611 679.733215 655.985779 665.433105 737.814758 688.784302 615.294189 547.657654 681.034546 612.650208 508.811249 629.742310 614.515930 632.726746 643.885803 561.196777 712.508057 633.917236 575.826416 542.428101 763.387390 644.091980 463.758850 605.423218 566.727661 605.380859 795.794250 617.298035 436.317505 607.509827 604.487183 672.623901 708.598694 597.886292 549.375549 503.381866 447.253387 681.534119 560.288757 724.010925 475.232147 836.948608 710.539368 986.640259 685.748108 849.410278 785.847656 898.569519 816.626404 919.331238 724.842285 903.724976 691.732544 633.433105 719.825745 704.124817 798.232483 866.337585 839.761047 804.620728 953.924255 862.519043 1037.905518 805.527832 914.235840 941.890869 777.705750 799.692688 893.100098 631.110962 756.203247 899.163330 757.196350 566.982910 947.255737 880.750061 762.078857 718.875427 672.523804 699.259399 840.290466 555.204285 833.502686 522.214417 928.368896 785.469604 732.202637 1019.811035 777.067871 845.449463 697.741394 910.004822 1035.813232 844.509888 682.797791 939.773071 845.110107 692.359497 851.874512 709.500916 820.497986 757.222473 770.488770 843.023254 785.553772 754.622803 949.442871 879.577454 1021.428528 982.676819 783.466003 1021.290894 683.628784 718.833191 662.934448 1219.714111 952.316162 685.386353 898.848389 552.420288 573.149841 738.678833 693.553284 620.860901 620.431702 886.081604 663.235596 892.287598 898.724548 706.968689 637.101746 589.284668 700.207947 871.639893 791.031494 868.243225 792.742310 752.823120 647.508057 727.183228 964.811218 788.545715 907.066772 1267.635864 497.692780 688.085754 544.291748 793.744751 799.379272 807.418457 859.943298 721.429199 988.005920 631.721863 856.734253 1251.476440 969.116577 949.131714 667.115417 671.931152 755.020325 874.013550 698.324097 784.839722 853.002747 1018.619873 982.393494 667.076904 705.433105 
conv_36_param_0 283.868317 312.841949 277.906219 221.084381 278.322113 195.278198 249.713882 227.773376 328.303436 111.873779 267.764618 156.913254 129.705475 223.817337 234.188889 288.705811 127.639236 211.381378 281.731262 257.738770 235.607803 249.706848 196.721115 293.394104 210.349106 183.497620 220.434540 307.715332 254.995529 306.388092 264.782623 301.894989 236.353348 236.806107 303.719940 313.454437 216.865356 198.100311 254.692841 295.362885 239.849365 276.173340 205.875519 304.097504 225.057358 275.482269 157.793365 225.428528 259.203033 176.947235 277.929413 255.362839 292.255524 215.344086 241.365707 222.741730 249.995438 243.143509 292.942841 198.426346 254.744888 270.876221 165.688232 237.699341 135.427216 306.304840 197.869705 221.928162 216.330582 317.532654 302.036102 278.729614 266.704285 178.316330 266.037170 254.718079 186.315933 247.175049 308.665466 249.510254 183.630829 264.643097 206.354172 306.505035 235.072800 118.348938 195.595123 267.432922 209.997070 226.589325 271.507507 211.632843 254.659637 221.684296 267.149719 223.833298 196.441238 316.871552 267.664764 265.857727 307.932068 213.983566 202.958588 312.921448 155.922653 213.885696 213.119019 304.835785 206.681549 321.187500 292.258545 321.754578 232.531296 253.611267 250.684387 232.204361 281.930786 253.802185 290.535095 259.901031 225.281418 231.677963 273.208405 299.380127 294.858856 197.236526 229.226410 237.069595 
conv_37_param_0 162.848618 286.518494 299.132996 253.685654 225.216843 349.112366 259.135071 309.228882 276.824890 300.052521 316.372803 227.538040 309.230499 248.538589 219.543091 189.406525 195.664520 319.792389 279.672943 261.794739 269.201019 285.155914 289.081818 241.661591 349.979645 298.241547 245.320160 312.786896 264.924896 324.524414 195.298767 267.063324 174.595032 266.652679 205.300339 277.487518 268.488220 286.284515 345.777618 373.605408 279.736908 225.139404 270.766602 272.260803 305.120972 316.462219 297.654266 294.724609 260.537323 271.430817 316.197906 302.744476 213.178299 314.000305 306.833191 273.704803 299.458435 281.624451 334.566345 198.940735 243.887924 246.914566 278.260895 282.617218 326.477295 217.884415 249.416168 299.343903 249.771790 241.434204 265.909882 309.186127 235.079391 230.154800 259.453125 294.381195 294.995422 201.120819 250.712418 265.019165 310.821625 309.756714 277.841949 219.038071 241.342667 241.610931 317.054932 245.787857 221.234070 253.142975 201.362534 267.904541 290.284454 242.729431 204.409897 207.997604 220.160904 291.274384 321.052734 344.416473 231.115570 279.046570 195.696228 262.200134 252.333618 187.500137 241.745865 346.870331 195.486740 207.993317 236.245071 301.781738 148.606400 268.676880 270.931274 282.107697 288.983093 267.967804 249.678101 279.360382 218.924545 238.031113 264.224487 219.156097 232.603027 306.235382 260.804260 329.401276 
conv_38_param_0 885.575623 821.060730 812.916504 602.603699 854.418274 935.506531 828.611206 983.572021 535.247375 632.640991 687.522095 622.719238 905.939636 487.971924 872.557739 753.565979 771.766113 812.777161 822.609802 542.764465 658.387085 811.827759 684.161804 937.270081 675.893555 649.545349 776.381409 590.260071 839.890747 798.523193 684.869446 906.167664 988.305054 666.401794 564.329102 854.777771 791.340271 806.323669 556.306702 797.945129 582.539490 816.783264 1045.808350 583.554443 673.225281 659.308472 759.519836 734.589905 714.213318 540.930176 772.061646 779.713196 947.195740 775.818604 669.297668 820.999695 878.494568 1001.009094 720.377686 520.099731 706.991211 679.922241 855.016663 671.559875 792.238159 714.567383 610.317078 525.130920 723.245605 963.516846 873.723206 733.523804 786.633423 722.947388 604.539185 729.249451 688.005005 592.679993 667.206360 820.738464 789.794678 693.107666 659.502930 848.686707 686.757996 824.543274 836.053345 754.190613 695.496277 674.359741 587.842163 815.683350 902.786072 538.311523 864.870605 709.789001 618.746948 722.580444 691.789429 664.480530 864.218811 823.039001 653.031128 781.462646 802.269165 722.422852 621.672119 889.512207 538.361206 862.661926 698.010681 518.839111 655.329285 698.504456 700.670166 859.037354 693.104492 823.274475 607.242859 611.681519 830.754150 668.609192 781.088135 764.733093 775.190002 888.362549 720.976013 1123.878052 812.557312 701.389404 930.515686 760.832642 940.487915 750.101074 790.782104 544.057861 773.039124 702.506531 807.279236 539.021973 785.485718 994.344910 799.491150 882.095215 669.303528 639.192383 679.871948 704.790405 943.321045 954.517212 811.480957 752.878113 659.925537 571.935425 757.799866 705.073059 852.687439 808.056946 820.145874 581.909485 1011.573547 777.351685 1194.731689 716.855896 673.304077 658.559875 855.324219 677.529846 727.676941 803.491760 684.394592 909.453369 493.683350 646.358337 794.111206 836.974060 830.026245 883.762756 709.259949 1064.834229 673.807129 816.403564 564.597961 678.205078 832.916931 900.268494 906.552307 555.524902 537.011475 890.162842 678.351990 875.849670 696.296082 710.208008 736.023621 811.219482 912.428406 870.835876 868.678101 772.899841 792.719238 646.109131 864.680176 697.060913 695.113037 685.575867 618.564819 758.204468 682.597717 697.363159 602.325317 765.771667 643.356323 759.847595 655.161865 665.241699 991.450012 653.505432 843.728027 998.208923 595.539185 867.353333 753.242432 811.075195 861.421143 448.014099 740.403564 744.633850 847.703979 608.504639 800.029419 909.615723 836.846924 978.457153 427.121094 640.086914 701.239929 816.644165 653.222595 880.881653 747.983093 767.802979 768.228882 1057.051025 749.381592 796.876526 665.207581 780.050049 827.426331 683.578979 772.275330 663.452087 787.077454 622.313049 874.105591 722.496094 
conv_39_param_0 752.268677 646.373657 449.182312 674.980225 477.230316 706.315430 555.835693 676.042053 412.892181 522.899841 766.214233 531.879333 597.257874 721.994568 812.070679 580.073853 702.343872 550.549500 638.203613 556.827148 670.111084 480.476166 682.067566 498.364044 486.476868 470.766724 901.793945 569.915894 753.645874 600.315857 634.517700 692.411865 545.183716 610.520874 626.263428 531.892883 514.822754 523.393250 511.438141 570.756348 546.850769 686.067993 730.310791 485.286285 562.623291 623.349792 476.171265 559.666138 646.901550 473.879517 626.509216 702.782837 934.265076 712.218750 566.957886 552.955078 657.824646 491.095306 543.196106 664.678650 430.900757 525.168030 474.515808 575.421753 614.997375 693.887268 648.937012 558.220520 650.814697 551.631287 532.768921 677.632812 572.130859 623.159973 522.767883 553.188416 822.414673 718.016602 497.101929 662.397644 686.292847 665.638916 578.273254 632.350830 386.366852 629.358765 514.022461 676.348267 543.954529 670.153015 656.276855 600.256042 611.779785 853.282532 572.973389 676.740479 517.609497 712.263428 587.529297 551.970337 664.826294 580.432922 718.610107 498.069855 555.674805 560.183899 583.952515 749.392151 514.275269 662.113464 644.095581 573.567322 642.688721 686.531616 444.937958 556.152222 560.263611 479.994293 942.910278 687.946777 606.597595 728.954102 444.229797 562.737488 792.040100 507.181244 533.227356 526.997253 
conv_40_param_0 1282.108032 1204.521118 676.411804 1687.099976 763.711731 1298.875977 1059.677246 1160.252808 1030.989868 1375.187378 1451.933960 1292.621582 553.000244 1044.545044 1335.383789 1075.477417 898.698364 1176.842773 1117.291626 1233.906250 1400.538818 1358.068359 946.814819 743.656433 1040.567749 1357.188843 1381.961548 2105.041016 1184.550903 1590.120850 1589.799561 969.869568 1227.884644 1204.308228 1704.521118 1031.018921 1154.223877 1285.421021 1146.018799 1418.457275 1283.179077 1606.308594 1586.837158 1365.317993 942.234192 951.428772 730.181274 1487.269409 1448.598022 1454.303955 1107.330933 676.001526 1531.493774 1126.969482 1008.602295 1023.412842 1688.703125 1183.776245 1345.347900 855.383911 1457.487915 1219.323486 1183.000244 1221.401245 993.442017 1000.160156 1258.583984 897.482178 1064.743774 781.890808 1012.270508 788.482056 1695.819336 1074.132935 988.508179 1494.716553 1291.128540 949.460083 1018.187622 1395.732178 782.911926 1167.273193 1702.839966 1428.583252 1355.799194 1390.645752 762.546753 1129.572632 1372.498413 1133.588867 1381.253906 1373.076294 1205.257690 1295.621460 1365.189697 1492.713867 1236.633545 1128.936157 1240.005249 914.596497 1308.642090 569.487549 1239.344849 1645.227661 1484.212280 983.466248 1464.273560 1053.337524 1652.895142 1285.898438 1163.656616 1361.367310 936.888794 1100.334595 1235.750244 1370.594849 1537.941895 1524.576782 1275.807617 1285.436157 1264.454712 1039.218506 1652.274902 1530.477173 813.505676 1365.454590 1057.880005 1516.231567 1314.579956 1071.508789 1784.796143 1418.730835 1476.602173 1264.200073 1636.588135 1733.466919 1313.124512 629.775513 1291.390381 1561.639404 1018.941345 1463.948975 1020.904480 1437.776855 1391.095093 1123.152710 1332.604614 933.861023 1006.517273 1744.747925 986.481445 1462.140991 1076.972900 1264.707886 868.845093 1206.203369 2020.540283 1380.943848 1045.463501 1506.813599 1034.734497 1422.558105 1271.663208 1659.010986 1532.320435 1023.652893 1769.871948 1497.019897 1312.939087 1667.171387 1120.603516 1308.404907 1479.883057 1562.413818 851.888428 1052.683594 1280.405762 1236.368652 1062.957397 1225.656738 1827.876831 1629.370728 1018.781433 1631.134888 1484.939575 1523.223145 1124.110596 991.070068 1386.766235 1050.838989 1102.529541 929.129150 1391.293579 1537.373901 1127.086670 1005.528687 1424.881104 1655.985962 1383.928955 1319.297607 1222.404907 1270.971191 1112.734253 1159.193848 1162.749634 1160.660034 1288.548950 1105.874268 924.238037 1240.608276 1468.122070 1291.685913 1041.014893 1852.773682 1481.975586 1530.315430 1122.879761 1156.841553 517.316772 1567.669067 988.382812 1080.683838 1508.052734 1316.562256 1317.311401 1009.164551 1551.517090 1108.145386 1263.669922 1420.628662 1142.718384 1335.093750 1002.615540 1459.019531 1262.280762 1094.852051 1498.185303 1103.897705 1090.161133 1202.812622 1332.772461 1166.336792 1722.447998 1317.231812 1404.142944 1521.744141 1455.680664 1543.272461 1341.797607 1404.219360 1520.786865 1579.703613 1408.168579 1021.735535 1018.956299 749.430969 
conv_41_param_0 455.376709 559.392212 530.017090 394.597870 453.492554 808.821533 467.355652 659.057495 678.619690 625.967712 406.729523 466.034637 420.246613 440.842834 643.702942 400.564667 671.254700 491.150116 373.999176 555.859680 490.622375 492.026245 316.964081 316.557983 548.392151 367.461182 447.926117 595.370605 608.686951 398.593628 626.456543 514.613037 445.842957 550.617676 628.712280 564.459595 412.716248 753.642273 460.542877 602.965454 552.025330 545.438293 506.313202 461.370117 511.118042 520.987122 603.328430 554.923218 554.600586 372.580963 630.617615 637.417114 374.589691 461.510437 502.586670 557.751404 592.971863 357.493195 469.269287 623.722351 509.685669 333.418304 303.126404 781.166504 562.597412 553.213501 790.246460 758.821777 596.358093 527.221802 597.482666 632.521362 494.280426 551.479126 859.753723 552.010986 526.762146 552.285522 459.895203 698.200806 476.796967 671.500183 773.091370 667.405396 678.507751 648.861389 755.632141 910.054932 493.731262 518.129028 545.911194 681.714294 682.939758 554.148560 643.906677 462.283386 896.380188 496.335541 764.172302 566.233215 504.692902 783.997864 487.776093 748.359070 572.986755 565.135132 612.274536 582.397034 727.534607 443.186646 666.893555 471.869232 611.039368 569.871948 550.212036 763.535339 548.619019 690.911438 530.539612 477.566711 562.592834 584.927185 864.926392 525.089355 620.244812 561.729187 466.226959 794.164062 
conv_42_param_0 140.533752 126.596458 124.896584 116.348259 114.247040 140.018417 114.063011 129.002792 155.490952 228.272064 97.348969 151.254974 157.995773 149.704910 177.655869 135.911102 113.049690 173.071091 150.699234 148.762802 133.004242 121.499550 179.567215 109.007889 117.444992 129.348114 118.635582 149.460815 100.101326 117.959793 113.824066 150.848419 92.061577 130.065628 162.450989 120.218811 150.923584 115.995171 126.348427 97.015274 106.291138 148.829224 134.369492 101.129257 156.600891 117.118347 119.735565 172.478378 187.357956 201.443375 101.510544 147.224243 110.378632 120.288155 117.198044 108.892609 150.730179 109.600815 129.163025 128.623550 98.619781 108.821968 144.674652 131.016159 
conv_43_param_0 170.301010 150.298508 149.040771 171.305252 131.090668 210.827484 122.065231 143.874756 104.488647 98.429657 147.963516 159.140915 156.129715 178.474274 159.905167 193.144302 163.941864 159.390884 207.069443 122.596962 207.661667 95.897255 150.245178 126.593628 189.575378 146.790726 138.684967 179.254822 142.342896 159.713333 178.504547 170.886551 185.637909 150.015686 216.560257 139.817902 166.210388 155.259506 185.606491 143.029434 168.462509 169.433548 174.432999 175.129150 113.492615 101.217682 207.263901 148.608871 108.402336 116.313881 151.506119 188.307175 121.333817 126.504761 176.611710 190.927795 101.957115 159.893387 199.103195 191.318954 148.294922 208.419830 150.981567 164.905197 
conv_44_param_0 506.169220 366.266846 398.302094 257.052094 292.295746 470.160736 468.959747 183.808853 687.624695 357.844849 364.545929 405.218353 562.078186 439.493073 413.740784 372.683502 363.181732 373.413055 469.615936 437.483917 422.941650 398.575684 460.226349 573.240967 470.313660 373.348602 364.792877 446.897003 365.748962 481.885620 458.012451 476.126404 349.846344 494.372375 417.051971 451.590302 491.876740 472.234283 559.630188 436.935699 436.504913 394.868286 462.926727 392.264282 333.682983 327.118408 439.198608 603.764160 309.573425 503.101166 535.795166 402.980438 460.190643 329.330444 483.493317 454.087067 407.394409 561.839355 480.419464 264.396118 635.771057 517.189514 531.403809 366.708008 532.349915 494.019867 331.609772 572.897644 352.012909 448.001038 545.752991 629.323486 413.585297 454.188965 532.856445 399.439392 617.020203 450.027283 450.322479 423.099579 415.453857 498.753571 389.601593 283.919556 347.968048 487.321472 379.469879 488.136749 358.616577 559.833252 580.515869 558.166260 623.843872 350.048492 401.580231 587.393127 483.497101 536.382690 461.606415 500.214508 476.808807 315.906769 383.674744 463.476746 491.415863 378.394745 352.933929 246.256119 426.027100 517.104736 485.082001 368.977448 305.927734 386.358002 408.362061 459.776428 353.506348 564.455322 461.367218 397.043304 496.431061 443.660278 486.879669 462.958160 347.555389 486.605530 543.206299 355.013062 
conv_45_param_0 605.498718 587.083923 642.611572 458.942688 613.295288 503.144470 303.697296 625.806824 490.402039 387.602478 358.415405 349.772247 425.505402 540.409607 475.328186 492.782776 408.800629 486.343414 446.180267 461.930756 247.298965 310.432739 513.913513 561.706177 447.990326 438.906433 476.038177 550.220337 404.004211 580.950439 349.050385 393.245880 613.893555 645.678040 455.748932 604.677368 667.369202 549.123169 360.652557 676.649109 422.095703 532.564575 578.651978 726.489380 535.095215 602.211060 487.145721 445.682129 771.415894 463.343018 736.687988 398.492737 509.855408 441.040070 570.584961 336.930603 587.467163 597.491150 501.195587 546.748596 394.415375 593.429321 717.093323 866.168457 
conv_46_param_0 69.210457 81.360138 75.282463 126.342850 113.556450 77.200012 87.275795 141.290741 168.060425 128.511108 138.462296 96.231720 104.628265 105.604332 71.282021 130.734207 84.336037 110.423981 159.867798 198.015274 117.859268 130.737793 152.607620 100.984627 75.235146 102.270599 95.429398 89.168381 88.583092 140.574951 135.142975 144.176239 
conv_47_param_0 120.069244 65.573296 81.811462 89.049576 65.954529 100.035339 107.580551 90.424767 66.971245 70.183662 95.636635 63.432842 76.698982 83.205254 67.270073 74.582581 82.148155 68.728882 79.268929 85.313301 57.305878 56.625095 84.176758 108.864197 87.086365 97.109055 76.145538 61.165043 83.196083 49.130611 69.608353 81.051361 
conv_48_param_0 228.830185 300.060333 300.292694 260.642517 476.140625 316.253693 463.441467 141.081375 323.418396 442.917908 105.639519 265.010590 267.881439 360.742981 279.394409 316.719818 322.154602 381.710571 421.495636 440.777832 328.096069 347.380829 394.838348 462.318542 442.368561 211.651306 214.723495 290.229401 435.425507 432.980377 313.420776 270.353088 309.961578 378.236298 381.396027 298.498474 300.782837 291.380066 266.833832 358.476746 326.915588 243.031967 286.150024 360.378418 375.894257 365.339935 330.989166 295.493103 403.082764 287.740723 360.497589 397.601135 394.515015 377.021759 474.832672 408.181824 318.830963 328.269226 301.068451 316.428131 290.183533 197.107834 242.561646 245.788513 
conv_49_param_0 539.310120 743.688416 1323.596802 695.248840 633.223755 902.292603 460.367737 549.451172 525.181030 533.263855 789.780823 613.353088 680.631226 653.262756 997.879211 636.352539 807.814331 755.268250 778.857056 833.884033 544.599792 513.817200 568.070984 552.643494 812.461731 470.898285 708.232483 723.255310 638.363464 626.683289 700.799988 1201.706421 601.613159 808.126831 562.473083 579.803406 645.698425 719.300781 1068.624512 671.630859 648.309753 823.249695 824.291992 448.147247 665.704102 910.580566 589.726013 886.399292 531.081360 708.563477 550.109985 919.162415 691.088257 840.855652 686.894592 465.873901 809.851257 645.014099 766.064148 716.692871 655.994629 696.630981 854.363953 619.682495 
conv_50_param_0 405.436676 369.725342 371.553314 424.141113 354.441559 472.149048 497.010864 506.894806 349.301941 516.847717 272.941437 332.521271 499.101013 355.768585 469.511475 399.103119 327.807678 351.541626 455.604736 488.953644 536.052856 402.383392 376.203400 440.240875 449.754822 464.338409 423.324371 428.247620 411.804962 404.737091 472.924438 342.758026 482.080719 416.737671 391.646698 505.091888 383.953369 305.297302 439.495941 355.571686 296.982758 482.288330 414.795746 461.015259 516.012451 408.772552 380.873138 342.666504 405.608521 301.702942 262.695679 430.621429 405.440094 511.727600 411.027649 472.981018 384.683655 568.788879 470.960327 408.592957 471.901276 419.267273 524.728760 612.232849 347.833435 484.097717 459.890900 360.690430 323.185272 389.039703 433.720428 253.422287 325.721191 614.510254 474.977112 282.849823 525.432495 456.786102 551.886658 422.731079 566.042114 562.862244 494.896301 375.953857 305.239899 495.369690 362.747986 442.681976 458.838989 436.876434 439.259338 322.773468 484.176575 396.138062 388.400909 434.793030 527.131348 578.224487 391.075531 458.160034 437.364014 434.246643 376.700836 537.216309 406.328339 412.663086 363.206879 465.430603 401.567139 480.963684 365.859436 271.247498 279.789154 414.343445 348.516022 403.507050 632.864075 406.158966 460.340240 395.936218 411.348267 392.738678 253.146851 482.824341 397.080078 352.203949 482.283081 520.538635 
conv_51_param_0 158.432022 80.139359 163.706009 162.727371 132.812576 178.159256 92.928444 125.231201 179.563614 131.209518 105.352310 106.035629 142.453766 131.068573 170.145554 113.092575 113.221542 159.293121 171.169739 104.364204 100.680122 149.303833 139.271194 120.612244 110.156700 106.108360 155.198105 208.667130 136.976700 159.265747 141.707184 83.850021 94.190163 132.656708 266.903534 85.402069 164.150391 149.019943 189.551941 130.433884 165.342407 108.067207 87.594055 160.859253 144.143890 102.855766 157.426407 87.490425 171.820480 184.053711 174.502472 97.176392 99.226570 135.270737 150.062103 90.523651 139.609055 173.775757 110.725433 128.170456 113.387077 101.296303 156.487259 86.579697 
conv_52_param_0 90.908279 97.788116 82.702927 150.942841 109.410889 85.187187 118.673950 189.901993 188.287598 154.431046 112.450562 123.163040 174.084671 163.676910 147.184143 130.611771 91.339676 133.235779 181.646896 92.765182 125.888161 94.041046 137.742966 178.045883 131.763489 109.212616 112.900940 74.014923 124.140381 152.136765 127.191223 130.249481 192.021378 123.867813 115.424133 108.963890 140.207458 150.088913 88.992981 143.285675 117.443550 158.347366 110.597427 187.290955 100.130318 126.857719 101.865295 131.892303 108.932365 125.820213 186.061493 185.481186 115.669090 117.357445 114.065742 130.420212 133.635544 174.117447 107.975258 76.322365 124.232849 191.006119 139.942368 185.515076 
conv_53_param_0 425.185425 418.895416 248.979019 392.255676 337.844788 386.788177 624.683655 484.839661 373.706177 443.986664 337.031891 433.602448 439.751373 575.384705 352.498230 363.824066 384.613495 386.973389 452.556793 508.321838 281.245239 641.749207 394.301270 364.764984 337.489990 265.497559 363.755615 584.839539 410.465393 446.971344 432.713196 294.281891 407.574249 543.197327 257.470520 509.336609 533.320862 284.860046 540.502197 744.344177 499.949188 442.073334 455.277740 311.499420 397.430359 434.615509 570.111938 526.400940 454.336273 463.600647 277.552765 267.749054 365.128601 313.791901 432.290131 364.807465 405.459106 675.919250 529.654114 603.260132 732.061096 399.531647 533.867310 626.525391 470.684875 605.147156 308.967102 457.555969 453.366791 433.538971 545.097656 242.100113 289.947296 298.698303 266.643280 360.701782 370.857758 386.198883 375.289856 455.398987 349.369446 470.149689 518.135986 308.689606 435.926666 473.882233 315.307800 456.936859 446.512421 367.785431 371.883026 352.514923 569.267151 273.194336 613.091980 434.286774 419.033478 450.392334 201.902054 410.295502 382.259949 382.199341 522.246521 453.430756 282.507599 361.844147 394.706879 378.526123 408.067413 477.390594 465.036469 415.729187 268.711914 660.236328 378.203094 326.746338 359.044434 535.558472 381.894958 399.727753 577.385925 553.384644 297.541840 339.697540 347.754028 425.961609 392.989868 389.633698 
conv_54_param_0 1632.630737 1234.865723 1342.802734 2738.000977 1176.211426 1378.067871 2414.534912 991.036499 1980.558960 1619.417480 2247.033447 2412.206299 2832.734619 1870.219849 1246.768677 2363.492920 2669.041992 1283.635132 1971.006348 2450.542236 1409.085815 2153.807129 1114.352661 1278.650269 2191.364990 955.882874 1478.504028 2398.103760 1861.653687 1482.392212 894.546204 2851.101807 1988.316895 1249.070068 2147.552979 1617.139526 1447.023560 1417.637817 1184.632080 1954.134521 1957.109619 3057.616699 1522.715698 2371.595215 1032.921143 1674.490234 1207.476318 2593.416992 1546.071167 1145.881348 1133.294922 2097.603271 679.875793 1276.430420 2243.677734 2178.009033 2808.568115 2018.485718 1153.989502 1086.405273 2204.280762 1434.433105 1020.866028 1048.125122 1216.228516 1756.557983 1773.683594 1919.917114 1479.414062 1275.371216 1568.213867 2116.660889 1673.629150 2058.246826 2377.336914 1443.600342 2220.492188 1495.937744 2394.601807 1324.614502 1833.499634 1108.840210 1185.989258 2096.483643 2055.093750 2690.919189 1108.248901 1858.303955 1771.310791 2126.571533 1535.971313 2130.329590 1834.587891 1712.112427 1918.053467 1720.457520 946.081848 2686.663574 961.973511 1640.354126 1399.925415 1356.920898 1589.988770 1007.988586 1845.730347 2307.197021 2469.094482 1907.094360 1284.881714 1530.576050 3226.514160 2309.922119 1577.697754 1021.194336 1829.789917 965.637512 1332.398315 1528.152710 1074.731079 1660.092163 2812.868652 1012.794861 1718.257202 3085.922607 2080.422363 2076.866943 1001.139954 2241.631592 
conv_55_param_0 849.977539 620.135620 531.752808 1034.297852 762.379089 723.518555 733.248474 544.226440 447.899872 798.677917 625.837891 995.756531 905.856201 576.304688 443.256439 708.475403 688.947205 782.858459 701.263672 574.756836 646.808594 358.977966 631.566284 636.357483 721.020813 647.059814 640.986023 803.639343 294.469696 605.051331 403.687897 807.881775 810.880798 494.087219 743.934387 447.239685 813.805054 639.549805 396.021759 708.912964 649.623901 558.747314 542.082520 731.917664 558.457764 697.997375 533.709290 632.822083 624.343933 426.584412 815.190247 636.227783 695.432922 393.166931 667.434753 502.323151 679.685486 620.619446 646.537109 471.787384 599.805420 582.409607 642.071228 506.862366 863.072815 348.834808 766.410706 547.746887 636.907410 547.233093 618.116089 494.093292 912.548462 458.520233 700.964600 1088.437622 634.514648 428.201782 470.044678 600.325012 839.199646 441.411102 675.559265 396.960999 629.876038 684.654663 386.387177 570.005493 795.999756 677.285767 678.587708 898.424683 568.616882 927.418091 816.675903 689.903320 606.426331 395.121826 523.832275 746.270447 713.585388 806.559814 959.959595 555.916016 600.822144 585.952332 499.320984 653.764221 691.405029 539.409058 737.902405 545.829834 725.839050 673.007629 925.697998 803.038574 827.681396 491.100189 725.666870 629.145264 444.948700 363.263306 506.495667 470.643463 908.466980 758.339905 431.419708 802.021973 447.156158 804.392944 1019.231445 388.291565 480.129913 636.652527 800.017273 920.990906 404.603943 832.350586 496.415802 501.859772 333.250275 235.822601 273.530365 528.186951 791.719910 682.576660 611.674744 498.958252 410.822266 740.545898 853.422424 434.929871 818.381287 625.005920 814.807251 618.040588 797.829956 529.746765 791.957520 316.728729 703.863220 390.984283 517.451477 751.409729 471.783417 373.574280 727.372253 652.524353 252.027756 473.872955 439.586975 856.950012 372.972351 484.723236 839.742432 504.374084 647.995483 637.807251 311.778290 540.144104 860.196533 645.709045 477.362854 1023.390503 509.703522 811.597351 385.318146 618.742676 638.278625 396.530579 553.759766 658.995483 640.293396 679.231140 704.474121 633.950684 739.036987 776.079651 429.279236 481.085327 421.218658 415.078705 856.495911 809.260498 810.445129 542.302551 351.567963 822.011536 668.294373 453.953613 491.668854 1056.632446 317.191986 662.699463 473.232727 932.802551 498.467926 971.080017 902.351440 692.605652 363.791595 1347.456543 1002.612122 780.497253 939.039307 830.057861 649.554932 207.221634 538.479553 724.402588 578.544495 1110.717529 370.027863 430.798431 282.871490 771.589600 384.927429 362.312225 688.112244 721.530640 729.212708 671.392761 721.611694 355.996124 398.513489 427.948853 614.955322 289.740906 1073.239258 716.720642 836.266968 819.445923 236.658417 264.670197 746.049438 619.230896 
conv_56_param_0 418.620911 371.441284 403.294312 610.204651 471.085602 648.459045 202.788940 451.870361 492.362427 337.129547 249.956253 262.400848 555.147461 401.898834 412.689423 501.644043 275.191498 550.984436 273.334534 469.213806 658.198853 498.414734 516.044067 414.820496 267.771393 652.489197 398.988831 281.969757 414.631348 478.500519 446.722137 419.082001 524.339233 590.713013 425.948975 722.515198 497.303192 445.421356 504.570465 618.888672 449.269318 631.900208 305.917145 283.836578 197.178207 434.455231 413.500214 556.215393 283.367279 370.531281 551.549438 389.109650 371.147858 376.630035 425.047485 279.254913 394.892792 357.724152 294.561310 671.975098 511.919312 286.179535 428.135101 547.676025 568.858826 672.616699 341.986969 396.595367 870.615540 348.133850 338.390839 399.196350 502.194305 543.060913 662.341675 505.856110 447.399933 394.052399 410.044800 399.272064 273.621063 394.752594 455.764832 527.890381 527.735291 640.445190 429.033966 634.618347 341.293884 363.691742 394.009735 594.602844 386.385956 428.411407 380.082520 737.164062 359.782745 515.949341 469.537323 690.386353 502.570465 188.415054 543.379822 379.228058 436.577271 364.346436 261.974091 561.958862 389.144135 524.012512 441.045410 568.018311 395.513672 209.522064 670.418884 470.170349 688.025330 430.587646 210.964615 603.925171 448.633453 639.533630 450.464539 563.719055 691.205200 565.708008 655.555359 330.829865 
conv_57_param_0 449.391205 211.904205 434.102692 809.797607 412.398438 408.581818 270.816315 684.328186 289.389191 232.427094 513.687561 504.005005 383.695038 443.836426 438.625854 367.433716 529.950256 291.458038 350.349365 506.557526 388.369965 354.041077 632.066895 471.638611 926.016174 519.237061 352.081512 682.706177 307.457794 388.462006 487.007324 409.370209 726.265991 400.783356 447.977509 475.714050 276.060303 602.133606 531.723389 648.295410 599.122070 523.873840 371.121521 354.176239 761.713989 580.445496 439.595886 673.150879 710.515198 579.285034 486.279816 488.889465 272.439545 552.548157 549.717529 474.804047 898.184326 269.466644 686.446716 308.753357 560.293823 440.254852 559.971985 641.078979 570.558594 461.984070 846.257874 852.917847 419.349701 767.507812 415.387268 762.196533 410.142761 375.049316 508.382477 445.458466 482.122742 371.581604 364.892456 454.272552 328.408447 464.641876 486.495056 557.755127 502.228729 297.175964 271.720367 762.288940 533.619446 306.208466 513.308838 531.740784 205.841400 463.445984 274.849915 405.017548 318.293213 492.482086 414.252319 410.396027 427.223053 183.654358 587.347534 638.663269 533.991577 497.308289 356.592407 505.261719 496.529358 567.793091 587.289795 334.844147 661.479065 333.264526 555.569763 420.069366 709.760010 598.717346 692.154480 240.155457 689.280762 435.015625 383.997803 571.936523 567.510071 475.653503 656.361877 440.578705 
conv_58_param_0 302.268585 722.820496 594.484436 166.100601 439.821716 629.037903 1103.184082 657.428894 513.163818 410.301758 602.798401 860.587524 430.205780 720.275635 1058.540649 760.578125 878.312805 649.264709 371.260620 929.698547 472.603394 145.800201 215.370895 587.723816 502.020111 336.639893 1031.204956 561.836548 687.579895 692.425049 430.017151 707.741028 252.134674 468.617737 651.882141 691.978394 994.553650 511.644135 270.332581 1578.133545 389.041809 764.171814 448.666168 868.925720 311.754486 788.919189 646.920654 1335.791626 616.221252 508.450806 1139.709229 672.591553 326.294495 631.352661 644.131958 769.595947 420.364136 468.057220 700.913757 708.780884 1000.716187 587.992310 625.944275 1323.135864 721.621887 688.561096 249.275497 1018.405029 554.725830 836.110046 950.654907 619.528992 922.940186 598.176636 291.981354 1577.488403 267.430756 408.123444 285.376801 941.885864 207.334930 713.406189 502.462280 641.279358 347.737122 568.951599 839.811401 1055.488770 604.285645 305.980103 355.071136 553.022095 982.864685 806.323975 193.155212 1254.163940 777.337280 1061.828369 846.177246 988.228760 261.583679 835.481934 374.491547 401.267090 724.028076 795.209961 1076.255493 458.791992 797.588135 519.802307 846.460693 853.000854 371.368011 368.449646 411.776917 452.777954 984.377136 899.549561 570.952942 437.806732 597.717224 906.223328 484.555634 493.063232 595.240784 730.227356 762.905579 639.601868 313.326385 1433.267456 445.107483 759.814636 1360.529053 537.988464 421.659210 413.345673 316.901276 382.052551 1431.033813 963.030518 697.764709 960.136963 469.513062 636.608582 252.767715 615.292419 1025.706543 988.219910 400.611481 1181.593872 400.230835 568.016785 797.600830 718.362976 515.765869 1416.223389 585.998901 433.384186 814.945984 912.761780 837.658569 376.765411 721.190491 1151.787720 935.928650 782.703369 742.797852 1386.870605 822.458252 828.034363 694.653198 932.480042 829.220764 708.004211 367.026184 474.634888 1002.613892 1060.607666 675.295959 624.321411 202.667206 1074.535278 693.883179 641.915283 441.692627 872.435486 449.203156 538.592407 891.730286 1143.135864 1066.177979 1414.372437 1085.843262 533.653320 635.062073 411.713654 583.479797 927.113525 287.187347 855.987183 466.156342 220.376953 915.808350 719.727417 570.625977 879.167358 1241.793335 566.684631 368.529633 781.091064 313.958496 857.435669 822.091797 630.662170 470.602325 696.494080 417.089691 712.462280 452.972961 581.393982 1163.236206 649.880554 954.347656 729.199097 511.265900 1538.546265 670.425110 1250.848389 944.634155 763.517334 232.729309 297.819855 664.721680 776.721619 654.423706 401.652130 670.024719 1081.170288 1521.346436 875.713257 1014.803467 1592.876587 427.848328 1114.616699 496.618103 566.251526 674.046814 627.296875 686.071655 454.772247 373.890228 316.745667 528.535828 629.667786 478.560455 420.801575 
conv_59_param_0 159.461472 196.813065 266.959106 177.937469 148.616043 216.293808 191.678421 272.645355 108.592796 75.116249 301.241058 193.378601 108.961281 72.302254 86.343407 251.945862 201.492569 165.427551 154.110565 323.584717 71.988274 193.269363 150.678467 284.731201 98.572517 202.282349 250.891510 188.545517 146.395187 156.554184 171.487350 247.117569 244.215836 222.404800 147.906036 179.466354 98.093369 56.455132 207.234741 305.404083 168.485397 192.563675 217.480225 185.518082 227.074142 221.992172 88.719246 212.754242 149.234573 218.046005 209.848190 219.902817 203.260010 161.322723 202.748337 14.346844 302.370911 58.345425 149.673630 137.106277 85.733109 146.185226 193.111923 254.477631 
conv_60_param_0 223.888947 229.453705 369.445465 190.343536 60.004585 132.720795 199.246979 412.727570 188.765182 81.348732 140.151901 327.807129 180.423859 72.060883 110.132523 64.388588 104.832787 71.338547 61.639214 133.721313 163.160065 444.044678 103.677307 351.614105 231.159973 244.227982 143.078445 284.051514 108.185997 137.109909 113.927406 472.457947 349.414886 195.841507 84.973244 201.384476 153.984741 538.429749 324.964172 56.741467 130.114441 601.022888 451.257904 172.235413 473.510773 95.706978 204.967926 184.259995 468.398865 224.995911 121.074600 183.572922 157.477188 137.014709 128.462799 362.199158 312.574585 164.013412 338.937286 200.151398 328.044220 200.511948 146.708099 408.517792 
conv_61_param_0 95.133873 102.886078 130.635864 114.680779 190.407028 160.256317 206.918060 157.157700 215.133163 334.959442 287.240204 301.211334 434.579773 692.665771 580.895569 751.179810 124.091606 114.277679 121.767792 110.210167 155.281189 166.089401 184.990036 159.764130 130.243362 110.397285 154.451309 182.140060 221.546844 243.763824 242.626862 149.394608 109.652611 113.380997 124.210121 173.860962 169.333328 134.834625 151.306580 237.747711 366.332397 362.755920 397.093140 455.908844 539.618286 646.602844 538.501038 529.727112 106.422256 120.526413 158.498474 135.607925 138.201920 137.762711 131.295303 147.697906 190.966232 159.177475 182.780045 261.140564 277.435730 228.154388 205.447083 168.346924 
conv_62_param_0 313.979736 263.823730 634.546326 488.555939 438.139221 233.610413 198.678711 502.938843 312.961243 184.837936 361.808594 242.070206 302.247223 246.040497 335.980865 321.607239 299.529999 325.609863 204.133102 332.892303 238.336456 147.113617 227.596802 403.910065 231.159302 237.777664 278.130859 255.774612 458.577087 166.232559 441.834900 191.055725 310.782837 190.911957 298.252625 200.366287 344.554016 255.318573 373.713074 335.145325 289.432983 339.050018 417.118469 528.101929 270.439301 761.787537 243.056107 117.763947 203.381363 165.591171 434.331482 352.124695 165.921127 242.473572 174.379196 238.408264 498.621185 510.009918 383.484283 292.634918 510.598755 351.574646 242.590317 238.132309 
conv_63_param_0 190.940842 384.130676 284.938232 455.476593 367.352875 451.173981 202.010284 234.166473 352.224060 250.054962 351.478119 235.223877 200.325500 336.845398 87.281776 204.980545 362.302795 774.673523 359.808807 122.482430 267.744385 263.735779 300.476501 346.097992 262.296783 311.500183 292.068665 552.462097 259.375397 142.812515 180.433472 319.133972 397.357819 242.657898 199.199921 436.751465 234.074310 113.413269 258.488892 239.477859 224.801346 277.366577 218.365829 116.901993 214.808762 389.807587 204.936905 475.523865 239.651123 157.460098 188.448822 220.746521 681.370605 360.141815 212.512024 471.107635 175.448776 601.857300 98.841728 97.141281 283.538818 138.632523 278.166260 684.778931 
conv_64_param_0 83.097763 97.780449 151.747955 172.135010 252.520386 176.575699 255.121140 388.783264 697.308289 886.187378 922.326233 805.250793 870.614197 816.627930 853.473328 825.701599 108.826775 92.363640 95.905602 115.598221 102.400002 136.605042 129.594421 111.247223 135.325699 180.121887 223.258362 158.401947 182.908585 132.364380 145.875488 209.080383 103.376785 102.400002 120.750229 192.949554 231.402130 251.300476 470.761993 360.493408 355.808472 456.709381 965.105774 843.782654 916.637878 825.701599 832.307190 829.652283 99.577339 120.526413 94.856308 122.802643 114.478874 125.893517 130.767227 183.813431 204.156982 186.181824 145.061905 168.893509 276.845123 212.150085 186.716446 213.193436 
conv_65_param_0 450.591675 335.176483 394.818146 322.752441 493.110443 343.504028 299.593414 467.508881 360.259979 338.361450 360.304443 348.898102 240.974808 371.667389 474.697388 257.371582 332.897400 407.115997 437.214447 417.646484 406.373413 412.783386 375.683136 331.649536 466.994873 309.900269 431.559082 217.321182 329.598572 281.536499 422.853760 529.748962 596.681763 306.843445 255.266678 452.780762 317.146301 278.879517 239.442047 281.752533 317.794342 310.265472 239.866913 341.369110 337.661407 255.288544 457.295013 261.661194 406.609406 323.969330 309.341095 269.848083 407.371857 370.450500 269.857605 177.296829 330.468842 462.814850 430.901001 255.302368 361.139160 222.137695 283.492554 328.733124 
conv_66_param_0 215.997299 148.577179 118.046631 245.681808 228.515030 214.799713 163.611313 245.982498 240.146927 165.020691 153.788147 122.033340 148.976959 242.610657 227.004776 131.068954 146.560120 166.327988 188.957733 133.061523 183.899597 178.546799 166.811615 172.840271 202.440598 307.770508 207.691696 302.810944 186.798752 256.332764 204.180130 241.741089 245.445190 199.948105 164.703873 210.745255 233.147858 165.582840 177.734818 117.898529 198.576370 187.722137 197.657928 121.753273 141.209778 157.781754 146.410553 186.290085 121.735107 162.189575 167.958450 191.380722 180.482758 215.487061 199.022095 275.433136 285.462280 171.470642 239.262970 267.346191 190.473358 233.925583 178.645554 258.995117 
conv_67_param_0 1293.205688 1332.117798 1127.176636 1432.049561 1663.283813 1506.711060 1739.772583 1450.012573 1719.642944 1778.434204 1647.480591 1594.458252 1564.487183 1629.418945 1410.690186 1610.501587 1687.565308 1594.458252 1672.643066 1595.681030 1715.389893 1625.599976 1736.868164 1776.915405 1551.653931 1418.383057 1256.502441 1426.160400 1555.133057 1695.817383 1715.389893 1682.108276 1539.029541 1691.681274 1682.108276 867.709778 1096.872925 1401.190552 1531.102295 1672.643066 1745.610718 1769.360596 1856.171265 1760.379028 1512.186035 1619.274658 1606.770630 1698.586182 1572.764893 1582.333130 1634.538940 1621.798950 1596.905640 1343.297607 1467.396362 1502.359619 1422.261108 1451.023682 1372.538208 1287.604004 1656.662476 1711.157837 1669.958252 1444.977783 
conv_68_param_0 167.900009 242.591827 162.642334 161.500214 96.058144 204.836456 186.127060 127.992912 160.642639 158.059219 161.317459 156.285110 104.167061 142.120544 133.831024 181.229050 301.654633 176.802170 182.349777 141.212418 154.818497 248.934891 93.741524 126.766174 125.532829 153.525253 116.764755 159.163452 159.231369 77.366409 127.785049 151.263870 133.858871 318.920197 383.257507 131.903275 160.645676 200.014633 162.666626 156.638535 218.321442 132.032410 97.000916 113.364548 182.541443 197.589523 190.539505 246.701904 62.826263 209.589493 122.972282 165.405533 159.036072 104.281281 111.121933 75.466995 150.862671 129.752869 120.670494 87.386246 108.293633 103.937965 190.940674 274.928406 
conv_69_param_0 83.474037 140.112869 244.924561 401.641418 150.029312 225.398575 173.555054 111.763710 126.238213 148.713409 272.291473 139.095367 212.353760 113.759026 149.969559 518.369568 326.135498 149.921646 118.292030 192.437958 140.000137 174.173157 183.832016 193.402390 140.606522 231.950180 139.053726 97.015022 128.563950 139.652969 36.164829 92.497231 140.990402 423.914612 185.028305 167.990250 197.601395 116.176544 37.850197 87.500824 27.429308 139.781097 109.669586 551.709412 141.506226 177.231354 185.402649 127.137901 128.917694 187.676529 125.979416 204.201736 95.708939 181.363342 19.411819 95.112419 115.276314 182.279495 190.541763 142.401352 97.922485 144.636658 284.108978 198.492126 
conv_70_param_0 132.297043 134.208466 109.930687 109.009224 88.588554 110.491081 137.908798 
conv_71_param_0 297.780823 275.235413 239.674988 448.867554 331.411926 340.483612 259.638214 286.506805 250.172485 227.576309 511.847504 365.819000 285.362823 411.199768 359.300507 199.640640 529.268311 279.301880 422.852692 326.666321 242.506561 385.617004 289.014099 268.251617 415.624573 264.382965 252.467194 437.165802 174.004242 293.980164 232.794647 206.589798 277.817657 154.321350 239.193039 300.782990 349.569458 291.420654 168.191345 417.573883 200.993668 302.576508 145.396927 440.591736 178.605591 324.757141 223.562103 313.311340 229.652176 287.471710 302.199127 262.156281 242.161743 488.726166 266.750824 143.535568 244.112640 427.455963 140.368179 387.229095 267.857147 298.086304 703.807800 478.142670 
conv_72_param_0 239.090256 137.340607 44.624535 198.022400 106.406242 252.774719 156.067215 101.884148 36.137836 262.260040 226.214371 116.176620 102.893417 151.358627 159.885208 231.216339 137.249100 151.105438 94.085510 34.476017 32.712341 134.299927 171.731537 853.513245 120.499252 160.866257 61.206718 202.967804 115.465668 163.962738 161.598114 301.838348 136.473434 174.495285 102.688423 118.344498 1019.988831 191.157684 52.035725 302.868317 118.473381 189.870895 115.484749 299.032440 33.986038 238.378189 128.961990 23.505602 207.889175 80.819672 227.654816 208.866302 153.944397 176.233902 934.344910 57.165295 142.815887 167.288589 236.236832 386.501953 295.381805 111.741516 133.441574 75.092072 
conv_73_param_0 125.528961 97.268509 86.067505 138.128525 135.607925 156.873337 130.504761 
conv_74_param_0 299.144440 198.958389 131.465454 1433.262695 1213.491089 538.095703 395.005035 960.070923 323.478577 377.534149 597.802368 275.375610 487.886719 203.788025 479.780121 2472.748047 369.847412 250.236786 220.205933 270.440155 410.213867 671.915222 712.641785 509.490692 382.311951 990.165466 319.687866 316.764008 556.071472 629.208313 299.663208 1077.370239 598.863770 283.407349 146.260849 318.162842 367.492096 236.805328 483.399445 395.160004 246.385101 1217.252930 231.739700 635.825867 158.607819 134.211807 427.372772 656.761108 343.440186 259.935272 300.273895 2007.978760 993.303955 172.163345 778.600403 618.078552 1405.257202 710.978516 1114.505005 100.180847 933.065308 554.572815 1142.638672 626.907654 
conv_75_param_0 446.569733 380.088989 467.547455 224.988571 554.226624 286.575623 430.092224 289.576477 437.960052 553.001221 492.629700 390.480255 378.427490 372.709442 394.678680 359.304779 387.782471 268.504669 346.382385 463.977570 232.692474 373.127899 438.278503 537.812866 311.156860 311.009888 343.821167 369.677338 399.721497 373.288269 308.173828 460.352600 376.462982 458.715790 595.069580 420.648895 146.722046 368.761383 380.176361 470.260101 279.770874 422.226746 518.655945 295.355743 333.855988 393.622803 244.226212 23.864311 417.267639 472.357849 452.738647 432.645935 342.716217 280.109497 181.782333 349.842590 153.031128 434.138275 340.726135 538.714844 357.482178 263.650879 256.089050 421.485138 
conv_76_param_0 55.011845 55.151825 55.058426 55.011845 54.918919 54.872574 55.011845 
conv_77_param_0 8.466666 
conv_3 127.157448 
conv_4 13.817068 
conv_5 10.116275 
conv_6 17.495909 
conv_7 28.116629 
conv_8 13.987792 
convrelu_0 31.922655 
convrelu_1 25.602217 
conv_11 22.458540 
conv_12 22.458540 
conv_13 22.458540 
convsigmoid_7 14.898762 
convsigmoid_8 14.898762 
convrelu_2 95.801468 
conv_17 50.740997 
conv_18 31.922655 
convrelu_3 31.922655 
convrelu_4 20.984758 
fcrelu_0 64.427498 
fcsigmoid_1 56.811192 
conv_21 36.824543 
convrelu_5 36.824543 
convrelu_6 21.265297 
conv_24 10.536722 
conv_25 28.013628 
conv_26 31.680134 
conv_27 35.579948 
conv_28 21.129349 
conv_29 24.570387 
conv_30 31.985565 
conv_31 31.542387 
conv_32 35.347160 
conv_33 24.764374 
conv_34 31.928230 
conv_35 35.277836 
conv_36 38.887054 
conv_37 35.190861 
conv_38 24.463573 
conv_39 35.346943 
conv_40 11.857857 
conv_41 35.512939 
conv_42 35.394497 
conv_43 35.479698 
conv_44 35.394497 
conv_45 31.636734 
conv_46 31.587536 
conv_47 31.577238 
conv_48 31.641745 
conv_49 27.968328 
conv_50 35.180378 
conv_51 31.761889 
conv_52 27.866287 
conv_53 24.306860 
conv_54 24.314363 
conv_55 31.724991 
conv_56 24.659573 
conv_57 24.912642 
conv_58 24.733280 
conv_59 27.968328 
conv_60 31.994459 
conv_61 31.558556 
conv_62 24.314363 
conv_63 27.979563 
conv_64 27.906931 
conv_65 28.329935 
conv_66 35.389282 
conv_67 35.489513 
conv_68 27.968328 
conv_69 35.046074 
conv_70 16.708525 
conv_71 24.314363 
conv_72 38.820892 
conv_73 24.679148 
conv_74 28.329935 
conv_75 24.785976 
conv_76 24.715258 
conv_77 197.125793 
